{
 "type": "flavora-bpe",
 "version": "0.2",
 "special_tokens": [
  "<PAD>",
  "<UNK>",
  "<BOS>",
  "<EOS>",
  "<USER>",
  "<ASSISTANT>"
 ],
 "vocab": {
  "<PAD>": 0,
  "<UNK>": 1,
  "<BOS>": 2,
  "<EOS>": 3,
  "<USER>": 4,
  "<ASSISTANT>": 5,
  "{": 6,
  "}": 7,
  "[": 8,
  "]": 9,
  "\"": 10,
  ":": 11,
  ",": 12,
  "0": 13,
  "1": 14,
  "2": 15,
  "3": 16,
  "4": 17,
  "5": 18,
  "6": 19,
  "7": 20,
  "8": 21,
  "9": 22,
  "-": 23,
  ".": 24,
  "a": 25,
  "</w>": 26,
  "l": 27,
  "e": 28,
  "r": 29,
  "g": 30,
  "i": 31,
  "c": 32,
  "t": 33,
  "o": 34,
  "p": 35,
  "n": 36,
  "u": 37,
  "s": 38,
  "h": 39,
  "w": 40,
  "m": 41,
  "d": 42,
  "k": 43,
  "b": 44,
  "y": 45,
  "f": 46,
  "'": 47,
  "x": 48,
  "v": 49,
  "q": 50,
  "z": 51,
  "j": 52,
  "ea": 53,
  "in": 54,
  "ic": 55,
  "ch": 56,
  "an": 57,
  "il": 58,
  "an</w>": 59,
  "co": 60,
  "ee": 61,
  "er": 62,
  "ho": 63,
  "ing</w>": 64,
  "th": 65,
  "er</w>": 66,
  "es": 67,
  "fr": 68,
  "le</w>": 69,
  "li": 70,
  "ut": 71,
  "cr": 72,
  "en": 73,
  "me": 74,
  "or": 75,
  "sp": 76,
  "to": 77,
  "at": 78,
  "di": 79,
  "es</w>": 80,
  "mil": 81,
  "mo": 82,
  "ar": 83,
  "av": 84,
  "ato</w>": 85,
  "ch</w>": 86,
  "ean": 87,
  "eat</w>": 88,
  "gg": 89,
  "gh": 90,
  "ican</w>": 91,
  "ice</w>": 92,
  "ma": 93,
  "oo": 94,
  "ot</w>": 95,
  "se</w>": 96,
  "sh": 97,
  "st": 98,
  "tr": 99,
  "un": 100,
  "ut</w>": 101,
  "ai": 102,
  "al": 103,
  "at</w>": 104,
  "ay</w>": 105,
  "ant</w>": 106,
  "be": 107,
  "bo": 108,
  "chic": 109,
  "chin": 110,
  "chick": 111,
  "crea": 112,
  "dg": 113,
  "dl": 114,
  "ed</w>": 115,
  "egg": 116,
  "en</w>": 117,
  "ent": 118,
  "ese</w>": 119,
  "fi": 120,
  "for": 121,
  "fres": 122,
  "gi": 123,
  "ght</w>": 124,
  "hot</w>": 125,
  "hou": 126,
  "in</w>": 127,
  "is</w>": 128,
  "it": 129,
  "inut": 130,
  "ke</w>": 131,
  "le": 132,
  "minut": 133,
  "my</w>": 134,
  "medi": 135,
  "mon</w>": 136,
  "ne": 137,
  "ni": 138,
  "ok</w>": 139,
  "on</w>": 140,
  "ork</w>": 141,
  "pe": 142,
  "pean": 143,
  "pl": 144,
  "po": 145,
  "qu": 146,
  "sh</w>": 147,
  "so": 148,
  "shr": 149,
  "spic": 150,
  "ter</w>": 151,
  "uts</w>": 152,
  "wee": 153,
  "wh": 154,
  "yo": 155,
  "'d</w>": 156,
  "-hot</w>": 157,
  "10</w>": 158,
  "15</w>": 159,
  "20</w>": 160,
  "30</w>": 161,
  "45</w>": 162,
  "90</w>": 163,
  "abo": 164,
  "ach</w>": 165,
  "af": 166,
  "afr": 167,
  "ali": 168,
  "am": 169,
  "am</w>": 170,
  "amil": 171,
  "ap": 172,
  "ast": 173,
  "about</w>": 174,
  "after</w>": 175,
  "african</w>": 176,
  "aid</w>": 177,
  "air": 178,
  "airy</w>": 179,
  "all": 180,
  "almon</w>": 181,
  "alian</w>": 182,
  "aller": 183,
  "allergi": 184,
  "allergic</w>": 185,
  "amer": 186,
  "american</w>": 187,
  "amily</w>": 188,
  "and</w>": 189,
  "anea": 190,
  "anese</w>": 191,
  "ang": 192,
  "ank": 193,
  "antr": 194,
  "anean</w>": 195,
  "angy</w>": 196,
  "anks</w>": 197,
  "antro</w>": 198,
  "apanese</w>": 199,
  "arli": 200,
  "arm</w>": 201,
  "arr": 202,
  "arlic</w>": 203,
  "arrot</w>": 204,
  "asta</w>": 205,
  "atch": 206,
  "atched</w>": 207,
  "ave</w>": 208,
  "aving</w>": 209,
  "avor": 210,
  "avory</w>": 211,
  "bean": 212,
  "bee": 213,
  "ble</w>": 214,
  "br": 215,
  "bu": 216,
  "but": 217,
  "by</w>": 218,
  "befor": 219,
  "bel": 220,
  "beans</w>": 221,
  "beef</w>": 222,
  "before</w>": 223,
  "bell</w>": 224,
  "bor</w>": 225,
  "brea": 226,
  "bread</w>": 227,
  "budg": 228,
  "budge": 229,
  "budget</w>": 230,
  "butter</w>": 231,
  "can</w>": 232,
  "carrot</w>": 233,
  "cat</w>": 234,
  "cchin": 235,
  "cil": 236,
  "cchini</w>": 237,
  "chea": 238,
  "chee": 239,
  "chil": 240,
  "chy</w>": 241,
  "cheap</w>": 242,
  "cheese</w>": 243,
  "chicken</w>": 244,
  "chickp": 245,
  "chickpea": 246,
  "chickpeas</w>": 247,
  "chili": 248,
  "chili-hot</w>": 249,
  "chinese</w>": 250,
  "cilantro</w>": 251,
  "coco": 252,
  "col": 253,
  "com": 254,
  "cook</w>": 255,
  "cor": 256,
  "coz": 257,
  "cocon": 258,
  "coconut</w>": 259,
  "cold</w>": 260,
  "comfor": 261,
  "comfort": 262,
  "comforting</w>": 263,
  "corn</w>": 264,
  "cozy</w>": 265,
  "craving</w>": 266,
  "cri": 267,
  "crun": 268,
  "cream</w>": 269,
  "creamy</w>": 270,
  "crisp": 271,
  "crispy</w>": 272,
  "crunchy</w>": 273,
  "dairy</w>": 274,
  "day</w>": 275,
  "dd": 276,
  "der</w>": 277,
  "din": 278,
  "do</w>": 279,
  "du": 280,
  "ddle</w>": 281,
  "dge</w>": 282,
  "dian</w>": 283,
  "dish</w>": 284,
  "dinn": 285,
  "dinner</w>": 286,
  "dles</w>": 287,
  "dly</w>": 288,
  "dul": 289,
  "dulg": 290,
  "dulgen": 291,
  "dulgent</w>": 292,
  "ee</w>": 293,
  "efres": 294,
  "el": 295,
  "ex": 296,
  "ey</w>": 297,
  "eal</w>": 298,
  "ear": 299,
  "ease</w>": 300,
  "east": 301,
  "eath": 302,
  "eart": 303,
  "earty</w>": 304,
  "easter": 305,
  "eastern</w>": 306,
  "eather</w>": 307,
  "eed</w>": 308,
  "eel</w>": 309,
  "eep": 310,
  "eeping</w>": 311,
  "efresh": 312,
  "efreshing</w>": 313,
  "eggpl": 314,
  "eggs</w>": 315,
  "eggplant</w>": 316,
  "ell": 317,
  "ellfi": 318,
  "ellfish</w>": 319,
  "ench</w>": 320,
  "end</w>": 321,
  "entil": 322,
  "entle</w>": 323,
  "entils</w>": 324,
  "ere</w>": 325,
  "err": 326,
  "ers</w>": 327,
  "ery</w>": 328,
  "erranean</w>": 329,
  "esday</w>": 330,
  "est</w>": 331,
  "exp": 332,
  "expi": 333,
  "expir": 334,
  "expire</w>": 335,
  "family</w>": 336,
  "feel</w>": 337,
  "fil": 338,
  "fin": 339,
  "fo": 340,
  "fto": 341,
  "fu</w>": 342,
  "fiery</w>": 343,
  "fill": 344,
  "filling</w>": 345,
  "find</w>": 346,
  "for</w>": 347,
  "french</w>": 348,
  "fri": 349,
  "fro": 350,
  "fresh</w>": 351,
  "fridge</w>": 352,
  "from</w>": 353,
  "ftov": 354,
  "ftovers</w>": 355,
  "garlic</w>": 356,
  "gentle</w>": 357,
  "gl": 358,
  "got</w>": 359,
  "gu": 360,
  "ggest</w>": 361,
  "ghbor</w>": 362,
  "giv": 363,
  "give</w>": 364,
  "glut": 365,
  "gluten</w>": 366,
  "gur": 367,
  "gurt</w>": 368,
  "have</w>": 369,
  "hearty</w>": 370,
  "heat</w>": 371,
  "here</w>": 372,
  "hoes</w>": 373,
  "home": 374,
  "how</w>": 375,
  "homel": 376,
  "homely</w>": 377,
  "hour": 378,
  "hour</w>": 379,
  "hours</w>": 380,
  "i'd</w>": 381,
  "ible</w>": 382,
  "iddle</w>": 383,
  "ie</w>": 384,
  "if</w>": 385,
  "ighbor</w>": 386,
  "im": 387,
  "ip</w>": 388,
  "it</w>": 389,
  "ith": 390,
  "ick</w>": 391,
  "imp</w>": 392,
  "inach</w>": 393,
  "indian</w>": 394,
  "indulgent</w>": 395,
  "ino": 396,
  "inoa</w>": 397,
  "italian</w>": 398,
  "ith</w>": 399,
  "ithin</w>": 400,
  "japanese</w>": 401,
  "kend</w>": 402,
  "king</w>": 403,
  "kr": 404,
  "ky</w>": 405,
  "kra</w>": 406,
  "leeping</w>": 407,
  "lentils</w>": 408,
  "loo": 409,
  "lun": 410,
  "leftovers</w>": 411,
  "lemon</w>": 412,
  "light</w>": 413,
  "like</w>": 414,
  "lit": 415,
  "liv": 416,
  "litt": 417,
  "little</w>": 418,
  "lives</w>": 419,
  "looking</w>": 420,
  "lunch</w>": 421,
  "mato</w>": 422,
  "me</w>": 423,
  "meal</w>": 424,
  "mi</w>": 425,
  "middle</w>": 426,
  "ms</w>": 427,
  "mu": 428,
  "maato</w>": 429,
  "make</w>": 430,
  "mami</w>": 431,
  "meth": 432,
  "mex": 433,
  "medit": 434,
  "mediu": 435,
  "mediterranean</w>": 436,
  "medium</w>": 437,
  "mething</w>": 438,
  "mexican</w>": 439,
  "mild</w>": 440,
  "mildly</w>": 441,
  "milk</w>": 442,
  "minute</w>": 443,
  "minutes</w>": 444,
  "moky</w>": 445,
  "mov": 446,
  "movie</w>": 447,
  "mushr": 448,
  "mushroo": 449,
  "mushrooms</w>": 450,
  "need</w>": 451,
  "nice</w>": 452,
  "no</w>": 453,
  "noo": 454,
  "not</w>": 455,
  "nuts</w>": 456,
  "neighbor</w>": 457,
  "new</w>": 458,
  "night</w>": 459,
  "nion</w>": 460,
  "noodles</w>": 461,
  "okra</w>": 462,
  "olives</w>": 463,
  "onion</w>": 464,
  "op": 465,
  "ople</w>": 466,
  "pasta</w>": 467,
  "per</w>": 468,
  "pork</w>": 469,
  "pper</w>": 470,
  "people</w>": 471,
  "pepper</w>": 472,
  "peanut</w>": 473,
  "peanuts</w>": 474,
  "please</w>": 475,
  "pos": 476,
  "pot": 477,
  "poss": 478,
  "possible</w>": 479,
  "potato</w>": 480,
  "quick</w>": 481,
  "quinoa</w>": 482,
  "refreshing</w>": 483,
  "rice</w>": 484,
  "said</w>": 485,
  "salmon</w>": 486,
  "savory</w>": 487,
  "shoes</w>": 488,
  "sleeping</w>": 489,
  "smoky</w>": 490,
  "su": 491,
  "swee": 492,
  "shellfish</w>": 493,
  "shrimp</w>": 494,
  "something</w>": 495,
  "soy</w>": 496,
  "spice</w>": 497,
  "spinach</w>": 498,
  "spiced</w>": 499,
  "spicy</w>": 500,
  "sty": 501,
  "style</w>": 502,
  "suggest</w>": 503,
  "sweet</w>": 504,
  "tangy</w>": 505,
  "to</w>": 506,
  "tu": 507,
  "tw": 508,
  "thanks</w>": 509,
  "the</w>": 510,
  "they</w>": 511,
  "this</w>": 512,
  "tofu</w>": 513,
  "tomaato</w>": 514,
  "tomato</w>": 515,
  "tonight</w>": 516,
  "treat</w>": 517,
  "tree</w>": 518,
  "tuesday</w>": 519,
  "two</w>": 520,
  "ucchini</w>": 521,
  "umami</w>": 522,
  "up</w>": 523,
  "use</w>": 524,
  "under</w>": 525,
  "want</w>": 526,
  "warm</w>": 527,
  "watched</w>": 528,
  "way</w>": 529,
  "weather</w>": 530,
  "with</w>": 531,
  "within</w>": 532,
  "work</w>": 533,
  "weekend</w>": 534,
  "what</w>": 535,
  "whip</w>": 536,
  "yogurt</w>": 537,
  "you</w>": 538,
  "zucchini</w>": 539
 },
 "merges": [
  [
   "e",
   "a"
  ],
  [
   "i",
   "n"
  ],
  [
   "i",
   "c"
  ],
  [
   "c",
   "h"
  ],
  [
   "a",
   "n"
  ],
  [
   "i",
   "l"
  ],
  [
   "a",
   "n</w>"
  ],
  [
   "c",
   "o"
  ],
  [
   "e",
   "e"
  ],
  [
   "e",
   "r"
  ],
  [
   "h",
   "o"
  ],
  [
   "in",
   "g</w>"
  ],
  [
   "t",
   "h"
  ],
  [
   "e",
   "r</w>"
  ],
  [
   "e",
   "s"
  ],
  [
   "f",
   "r"
  ],
  [
   "l",
   "e</w>"
  ],
  [
   "l",
   "i"
  ],
  [
   "u",
   "t"
  ],
  [
   "c",
   "r"
  ],
  [
   "e",
   "n"
  ],
  [
   "m",
   "e"
  ],
  [
   "o",
   "r"
  ],
  [
   "s",
   "p"
  ],
  [
   "t",
   "o"
  ],
  [
   "a",
   "t"
  ],
  [
   "d",
   "i"
  ],
  [
   "e",
   "s</w>"
  ],
  [
   "m",
   "il"
  ],
  [
   "m",
   "o"
  ],
  [
   "a",
   "r"
  ],
  [
   "a",
   "v"
  ],
  [
   "at",
   "o</w>"
  ],
  [
   "c",
   "h</w>"
  ],
  [
   "ea",
   "n"
  ],
  [
   "ea",
   "t</w>"
  ],
  [
   "g",
   "g"
  ],
  [
   "g",
   "h"
  ],
  [
   "ic",
   "an</w>"
  ],
  [
   "ic",
   "e</w>"
  ],
  [
   "m",
   "a"
  ],
  [
   "o",
   "o"
  ],
  [
   "o",
   "t</w>"
  ],
  [
   "s",
   "e</w>"
  ],
  [
   "s",
   "h"
  ],
  [
   "s",
   "t"
  ],
  [
   "t",
   "r"
  ],
  [
   "u",
   "n"
  ],
  [
   "u",
   "t</w>"
  ],
  [
   "a",
   "i"
  ],
  [
   "a",
   "l"
  ],
  [
   "a",
   "t</w>"
  ],
  [
   "a",
   "y</w>"
  ],
  [
   "an",
   "t</w>"
  ],
  [
   "b",
   "e"
  ],
  [
   "b",
   "o"
  ],
  [
   "ch",
   "ic"
  ],
  [
   "ch",
   "in"
  ],
  [
   "chic",
   "k"
  ],
  [
   "cr",
   "ea"
  ],
  [
   "d",
   "g"
  ],
  [
   "d",
   "l"
  ],
  [
   "e",
   "d</w>"
  ],
  [
   "e",
   "gg"
  ],
  [
   "e",
   "n</w>"
  ],
  [
   "en",
   "t"
  ],
  [
   "es",
   "e</w>"
  ],
  [
   "f",
   "i"
  ],
  [
   "f",
   "or"
  ],
  [
   "fr",
   "es"
  ],
  [
   "g",
   "i"
  ],
  [
   "gh",
   "t</w>"
  ],
  [
   "ho",
   "t</w>"
  ],
  [
   "ho",
   "u"
  ],
  [
   "i",
   "n</w>"
  ],
  [
   "i",
   "s</w>"
  ],
  [
   "i",
   "t"
  ],
  [
   "in",
   "ut"
  ],
  [
   "k",
   "e</w>"
  ],
  [
   "l",
   "e"
  ],
  [
   "m",
   "inut"
  ],
  [
   "m",
   "y</w>"
  ],
  [
   "me",
   "di"
  ],
  [
   "mo",
   "n</w>"
  ],
  [
   "n",
   "e"
  ],
  [
   "n",
   "i"
  ],
  [
   "o",
   "k</w>"
  ],
  [
   "o",
   "n</w>"
  ],
  [
   "or",
   "k</w>"
  ],
  [
   "p",
   "e"
  ],
  [
   "p",
   "ean"
  ],
  [
   "p",
   "l"
  ],
  [
   "p",
   "o"
  ],
  [
   "q",
   "u"
  ],
  [
   "s",
   "h</w>"
  ],
  [
   "s",
   "o"
  ],
  [
   "sh",
   "r"
  ],
  [
   "sp",
   "ic"
  ],
  [
   "t",
   "er</w>"
  ],
  [
   "ut",
   "s</w>"
  ],
  [
   "w",
   "ee"
  ],
  [
   "w",
   "h"
  ],
  [
   "y",
   "o"
  ],
  [
   "'",
   "d</w>"
  ],
  [
   "-",
   "hot</w>"
  ],
  [
   "1",
   "0</w>"
  ],
  [
   "1",
   "5</w>"
  ],
  [
   "2",
   "0</w>"
  ],
  [
   "3",
   "0</w>"
  ],
  [
   "4",
   "5</w>"
  ],
  [
   "9",
   "0</w>"
  ],
  [
   "a",
   "bo"
  ],
  [
   "a",
   "ch</w>"
  ],
  [
   "a",
   "f"
  ],
  [
   "a",
   "fr"
  ],
  [
   "a",
   "li"
  ],
  [
   "a",
   "m"
  ],
  [
   "a",
   "m</w>"
  ],
  [
   "a",
   "mil"
  ],
  [
   "a",
   "p"
  ],
  [
   "a",
   "st"
  ],
  [
   "abo",
   "ut</w>"
  ],
  [
   "af",
   "ter</w>"
  ],
  [
   "afr",
   "ican</w>"
  ],
  [
   "ai",
   "d</w>"
  ],
  [
   "ai",
   "r"
  ],
  [
   "air",
   "y</w>"
  ],
  [
   "al",
   "l"
  ],
  [
   "al",
   "mon</w>"
  ],
  [
   "ali",
   "an</w>"
  ],
  [
   "all",
   "er"
  ],
  [
   "aller",
   "gi"
  ],
  [
   "allergi",
   "c</w>"
  ],
  [
   "am",
   "er"
  ],
  [
   "amer",
   "ican</w>"
  ],
  [
   "amil",
   "y</w>"
  ],
  [
   "an",
   "d</w>"
  ],
  [
   "an",
   "ea"
  ],
  [
   "an",
   "ese</w>"
  ],
  [
   "an",
   "g"
  ],
  [
   "an",
   "k"
  ],
  [
   "an",
   "tr"
  ],
  [
   "anea",
   "n</w>"
  ],
  [
   "ang",
   "y</w>"
  ],
  [
   "ank",
   "s</w>"
  ],
  [
   "antr",
   "o</w>"
  ],
  [
   "ap",
   "anese</w>"
  ],
  [
   "ar",
   "li"
  ],
  [
   "ar",
   "m</w>"
  ],
  [
   "ar",
   "r"
  ],
  [
   "arli",
   "c</w>"
  ],
  [
   "arr",
   "ot</w>"
  ],
  [
   "ast",
   "a</w>"
  ],
  [
   "at",
   "ch"
  ],
  [
   "atch",
   "ed</w>"
  ],
  [
   "av",
   "e</w>"
  ],
  [
   "av",
   "ing</w>"
  ],
  [
   "av",
   "or"
  ],
  [
   "avor",
   "y</w>"
  ],
  [
   "b",
   "ean"
  ],
  [
   "b",
   "ee"
  ],
  [
   "b",
   "le</w>"
  ],
  [
   "b",
   "r"
  ],
  [
   "b",
   "u"
  ],
  [
   "b",
   "ut"
  ],
  [
   "b",
   "y</w>"
  ],
  [
   "be",
   "for"
  ],
  [
   "be",
   "l"
  ],
  [
   "bean",
   "s</w>"
  ],
  [
   "bee",
   "f</w>"
  ],
  [
   "befor",
   "e</w>"
  ],
  [
   "bel",
   "l</w>"
  ],
  [
   "bo",
   "r</w>"
  ],
  [
   "br",
   "ea"
  ],
  [
   "brea",
   "d</w>"
  ],
  [
   "bu",
   "dg"
  ],
  [
   "budg",
   "e"
  ],
  [
   "budge",
   "t</w>"
  ],
  [
   "but",
   "ter</w>"
  ],
  [
   "c",
   "an</w>"
  ],
  [
   "c",
   "arrot</w>"
  ],
  [
   "c",
   "at</w>"
  ],
  [
   "c",
   "chin"
  ],
  [
   "c",
   "il"
  ],
  [
   "cchin",
   "i</w>"
  ],
  [
   "ch",
   "ea"
  ],
  [
   "ch",
   "ee"
  ],
  [
   "ch",
   "il"
  ],
  [
   "ch",
   "y</w>"
  ],
  [
   "chea",
   "p</w>"
  ],
  [
   "chee",
   "se</w>"
  ],
  [
   "chick",
   "en</w>"
  ],
  [
   "chick",
   "p"
  ],
  [
   "chickp",
   "ea"
  ],
  [
   "chickpea",
   "s</w>"
  ],
  [
   "chil",
   "i"
  ],
  [
   "chili",
   "-hot</w>"
  ],
  [
   "chin",
   "ese</w>"
  ],
  [
   "cil",
   "antro</w>"
  ],
  [
   "co",
   "co"
  ],
  [
   "co",
   "l"
  ],
  [
   "co",
   "m"
  ],
  [
   "co",
   "ok</w>"
  ],
  [
   "co",
   "r"
  ],
  [
   "co",
   "z"
  ],
  [
   "coco",
   "n"
  ],
  [
   "cocon",
   "ut</w>"
  ],
  [
   "col",
   "d</w>"
  ],
  [
   "com",
   "for"
  ],
  [
   "comfor",
   "t"
  ],
  [
   "comfort",
   "ing</w>"
  ],
  [
   "cor",
   "n</w>"
  ],
  [
   "coz",
   "y</w>"
  ],
  [
   "cr",
   "aving</w>"
  ],
  [
   "cr",
   "i"
  ],
  [
   "cr",
   "un"
  ],
  [
   "crea",
   "m</w>"
  ],
  [
   "crea",
   "my</w>"
  ],
  [
   "cri",
   "sp"
  ],
  [
   "crisp",
   "y</w>"
  ],
  [
   "crun",
   "chy</w>"
  ],
  [
   "d",
   "airy</w>"
  ],
  [
   "d",
   "ay</w>"
  ],
  [
   "d",
   "d"
  ],
  [
   "d",
   "er</w>"
  ],
  [
   "d",
   "in"
  ],
  [
   "d",
   "o</w>"
  ],
  [
   "d",
   "u"
  ],
  [
   "dd",
   "le</w>"
  ],
  [
   "dg",
   "e</w>"
  ],
  [
   "di",
   "an</w>"
  ],
  [
   "di",
   "sh</w>"
  ],
  [
   "din",
   "n"
  ],
  [
   "dinn",
   "er</w>"
  ],
  [
   "dl",
   "es</w>"
  ],
  [
   "dl",
   "y</w>"
  ],
  [
   "du",
   "l"
  ],
  [
   "dul",
   "g"
  ],
  [
   "dulg",
   "en"
  ],
  [
   "dulgen",
   "t</w>"
  ],
  [
   "e",
   "e</w>"
  ],
  [
   "e",
   "fres"
  ],
  [
   "e",
   "l"
  ],
  [
   "e",
   "x"
  ],
  [
   "e",
   "y</w>"
  ],
  [
   "ea",
   "l</w>"
  ],
  [
   "ea",
   "r"
  ],
  [
   "ea",
   "se</w>"
  ],
  [
   "ea",
   "st"
  ],
  [
   "ea",
   "th"
  ],
  [
   "ear",
   "t"
  ],
  [
   "eart",
   "y</w>"
  ],
  [
   "east",
   "er"
  ],
  [
   "easter",
   "n</w>"
  ],
  [
   "eath",
   "er</w>"
  ],
  [
   "ee",
   "d</w>"
  ],
  [
   "ee",
   "l</w>"
  ],
  [
   "ee",
   "p"
  ],
  [
   "eep",
   "ing</w>"
  ],
  [
   "efres",
   "h"
  ],
  [
   "efresh",
   "ing</w>"
  ],
  [
   "egg",
   "pl"
  ],
  [
   "egg",
   "s</w>"
  ],
  [
   "eggpl",
   "ant</w>"
  ],
  [
   "el",
   "l"
  ],
  [
   "ell",
   "fi"
  ],
  [
   "ellfi",
   "sh</w>"
  ],
  [
   "en",
   "ch</w>"
  ],
  [
   "en",
   "d</w>"
  ],
  [
   "ent",
   "il"
  ],
  [
   "ent",
   "le</w>"
  ],
  [
   "entil",
   "s</w>"
  ],
  [
   "er",
   "e</w>"
  ],
  [
   "er",
   "r"
  ],
  [
   "er",
   "s</w>"
  ],
  [
   "er",
   "y</w>"
  ],
  [
   "err",
   "anean</w>"
  ],
  [
   "es",
   "day</w>"
  ],
  [
   "es",
   "t</w>"
  ],
  [
   "ex",
   "p"
  ],
  [
   "exp",
   "i"
  ],
  [
   "expi",
   "r"
  ],
  [
   "expir",
   "e</w>"
  ],
  [
   "f",
   "amily</w>"
  ],
  [
   "f",
   "eel</w>"
  ],
  [
   "f",
   "il"
  ],
  [
   "f",
   "in"
  ],
  [
   "f",
   "o"
  ],
  [
   "f",
   "to"
  ],
  [
   "f",
   "u</w>"
  ],
  [
   "fi",
   "ery</w>"
  ],
  [
   "fil",
   "l"
  ],
  [
   "fill",
   "ing</w>"
  ],
  [
   "fin",
   "d</w>"
  ],
  [
   "fo",
   "r</w>"
  ],
  [
   "fr",
   "ench</w>"
  ],
  [
   "fr",
   "i"
  ],
  [
   "fr",
   "o"
  ],
  [
   "fres",
   "h</w>"
  ],
  [
   "fri",
   "dge</w>"
  ],
  [
   "fro",
   "m</w>"
  ],
  [
   "fto",
   "v"
  ],
  [
   "ftov",
   "ers</w>"
  ],
  [
   "g",
   "arlic</w>"
  ],
  [
   "g",
   "entle</w>"
  ],
  [
   "g",
   "l"
  ],
  [
   "g",
   "ot</w>"
  ],
  [
   "g",
   "u"
  ],
  [
   "gg",
   "est</w>"
  ],
  [
   "gh",
   "bor</w>"
  ],
  [
   "gi",
   "v"
  ],
  [
   "giv",
   "e</w>"
  ],
  [
   "gl",
   "ut"
  ],
  [
   "glut",
   "en</w>"
  ],
  [
   "gu",
   "r"
  ],
  [
   "gur",
   "t</w>"
  ],
  [
   "h",
   "ave</w>"
  ],
  [
   "h",
   "earty</w>"
  ],
  [
   "h",
   "eat</w>"
  ],
  [
   "h",
   "ere</w>"
  ],
  [
   "ho",
   "es</w>"
  ],
  [
   "ho",
   "me"
  ],
  [
   "ho",
   "w</w>"
  ],
  [
   "home",
   "l"
  ],
  [
   "homel",
   "y</w>"
  ],
  [
   "hou",
   "r"
  ],
  [
   "hou",
   "r</w>"
  ],
  [
   "hour",
   "s</w>"
  ],
  [
   "i",
   "'d</w>"
  ],
  [
   "i",
   "ble</w>"
  ],
  [
   "i",
   "ddle</w>"
  ],
  [
   "i",
   "e</w>"
  ],
  [
   "i",
   "f</w>"
  ],
  [
   "i",
   "ghbor</w>"
  ],
  [
   "i",
   "m"
  ],
  [
   "i",
   "p</w>"
  ],
  [
   "i",
   "t</w>"
  ],
  [
   "i",
   "th"
  ],
  [
   "ic",
   "k</w>"
  ],
  [
   "im",
   "p</w>"
  ],
  [
   "in",
   "ach</w>"
  ],
  [
   "in",
   "dian</w>"
  ],
  [
   "in",
   "dulgent</w>"
  ],
  [
   "in",
   "o"
  ],
  [
   "ino",
   "a</w>"
  ],
  [
   "it",
   "alian</w>"
  ],
  [
   "it",
   "h</w>"
  ],
  [
   "ith",
   "in</w>"
  ],
  [
   "j",
   "apanese</w>"
  ],
  [
   "k",
   "end</w>"
  ],
  [
   "k",
   "ing</w>"
  ],
  [
   "k",
   "r"
  ],
  [
   "k",
   "y</w>"
  ],
  [
   "kr",
   "a</w>"
  ],
  [
   "l",
   "eeping</w>"
  ],
  [
   "l",
   "entils</w>"
  ],
  [
   "l",
   "oo"
  ],
  [
   "l",
   "un"
  ],
  [
   "le",
   "ftovers</w>"
  ],
  [
   "le",
   "mon</w>"
  ],
  [
   "li",
   "ght</w>"
  ],
  [
   "li",
   "ke</w>"
  ],
  [
   "li",
   "t"
  ],
  [
   "li",
   "v"
  ],
  [
   "lit",
   "t"
  ],
  [
   "litt",
   "le</w>"
  ],
  [
   "liv",
   "es</w>"
  ],
  [
   "loo",
   "king</w>"
  ],
  [
   "lun",
   "ch</w>"
  ],
  [
   "m",
   "ato</w>"
  ],
  [
   "m",
   "e</w>"
  ],
  [
   "m",
   "eal</w>"
  ],
  [
   "m",
   "i</w>"
  ],
  [
   "m",
   "iddle</w>"
  ],
  [
   "m",
   "s</w>"
  ],
  [
   "m",
   "u"
  ],
  [
   "ma",
   "ato</w>"
  ],
  [
   "ma",
   "ke</w>"
  ],
  [
   "ma",
   "mi</w>"
  ],
  [
   "me",
   "th"
  ],
  [
   "me",
   "x"
  ],
  [
   "medi",
   "t"
  ],
  [
   "medi",
   "u"
  ],
  [
   "medit",
   "erranean</w>"
  ],
  [
   "mediu",
   "m</w>"
  ],
  [
   "meth",
   "ing</w>"
  ],
  [
   "mex",
   "ican</w>"
  ],
  [
   "mil",
   "d</w>"
  ],
  [
   "mil",
   "dly</w>"
  ],
  [
   "mil",
   "k</w>"
  ],
  [
   "minut",
   "e</w>"
  ],
  [
   "minut",
   "es</w>"
  ],
  [
   "mo",
   "ky</w>"
  ],
  [
   "mo",
   "v"
  ],
  [
   "mov",
   "ie</w>"
  ],
  [
   "mu",
   "shr"
  ],
  [
   "mushr",
   "oo"
  ],
  [
   "mushroo",
   "ms</w>"
  ],
  [
   "n",
   "eed</w>"
  ],
  [
   "n",
   "ice</w>"
  ],
  [
   "n",
   "o</w>"
  ],
  [
   "n",
   "oo"
  ],
  [
   "n",
   "ot</w>"
  ],
  [
   "n",
   "uts</w>"
  ],
  [
   "ne",
   "ighbor</w>"
  ],
  [
   "ne",
   "w</w>"
  ],
  [
   "ni",
   "ght</w>"
  ],
  [
   "ni",
   "on</w>"
  ],
  [
   "noo",
   "dles</w>"
  ],
  [
   "o",
   "kra</w>"
  ],
  [
   "o",
   "lives</w>"
  ],
  [
   "o",
   "nion</w>"
  ],
  [
   "o",
   "p"
  ],
  [
   "op",
   "le</w>"
  ],
  [
   "p",
   "asta</w>"
  ],
  [
   "p",
   "er</w>"
  ],
  [
   "p",
   "ork</w>"
  ],
  [
   "p",
   "per</w>"
  ],
  [
   "pe",
   "ople</w>"
  ],
  [
   "pe",
   "pper</w>"
  ],
  [
   "pean",
   "ut</w>"
  ],
  [
   "pean",
   "uts</w>"
  ],
  [
   "pl",
   "ease</w>"
  ],
  [
   "po",
   "s"
  ],
  [
   "po",
   "t"
  ],
  [
   "pos",
   "s"
  ],
  [
   "poss",
   "ible</w>"
  ],
  [
   "pot",
   "ato</w>"
  ],
  [
   "qu",
   "ick</w>"
  ],
  [
   "qu",
   "inoa</w>"
  ],
  [
   "r",
   "efreshing</w>"
  ],
  [
   "r",
   "ice</w>"
  ],
  [
   "s",
   "aid</w>"
  ],
  [
   "s",
   "almon</w>"
  ],
  [
   "s",
   "avory</w>"
  ],
  [
   "s",
   "hoes</w>"
  ],
  [
   "s",
   "leeping</w>"
  ],
  [
   "s",
   "moky</w>"
  ],
  [
   "s",
   "u"
  ],
  [
   "s",
   "wee"
  ],
  [
   "sh",
   "ellfish</w>"
  ],
  [
   "shr",
   "imp</w>"
  ],
  [
   "so",
   "mething</w>"
  ],
  [
   "so",
   "y</w>"
  ],
  [
   "sp",
   "ice</w>"
  ],
  [
   "sp",
   "inach</w>"
  ],
  [
   "spic",
   "ed</w>"
  ],
  [
   "spic",
   "y</w>"
  ],
  [
   "st",
   "y"
  ],
  [
   "sty",
   "le</w>"
  ],
  [
   "su",
   "ggest</w>"
  ],
  [
   "swee",
   "t</w>"
  ],
  [
   "t",
   "angy</w>"
  ],
  [
   "t",
   "o</w>"
  ],
  [
   "t",
   "u"
  ],
  [
   "t",
   "w"
  ],
  [
   "th",
   "anks</w>"
  ],
  [
   "th",
   "e</w>"
  ],
  [
   "th",
   "ey</w>"
  ],
  [
   "th",
   "is</w>"
  ],
  [
   "to",
   "fu</w>"
  ],
  [
   "to",
   "maato</w>"
  ],
  [
   "to",
   "mato</w>"
  ],
  [
   "to",
   "night</w>"
  ],
  [
   "tr",
   "eat</w>"
  ],
  [
   "tr",
   "ee</w>"
  ],
  [
   "tu",
   "esday</w>"
  ],
  [
   "tw",
   "o</w>"
  ],
  [
   "u",
   "cchini</w>"
  ],
  [
   "u",
   "mami</w>"
  ],
  [
   "u",
   "p</w>"
  ],
  [
   "u",
   "se</w>"
  ],
  [
   "un",
   "der</w>"
  ],
  [
   "w",
   "ant</w>"
  ],
  [
   "w",
   "arm</w>"
  ],
  [
   "w",
   "atched</w>"
  ],
  [
   "w",
   "ay</w>"
  ],
  [
   "w",
   "eather</w>"
  ],
  [
   "w",
   "ith</w>"
  ],
  [
   "w",
   "ithin</w>"
  ],
  [
   "w",
   "ork</w>"
  ],
  [
   "wee",
   "kend</w>"
  ],
  [
   "wh",
   "at</w>"
  ],
  [
   "wh",
   "ip</w>"
  ],
  [
   "yo",
   "gurt</w>"
  ],
  [
   "yo",
   "u</w>"
  ],
  [
   "z",
   "ucchini</w>"
  ]
 ]
}