{
 "type": "flavora-bpe",
 "version": "0.2",
 "special_tokens": [
  "<PAD>",
  "<UNK>",
  "<BOS>",
  "<EOS>",
  "<USER>",
  "<ASSISTANT>"
 ],
 "vocab": {
  "<PAD>": 0,
  "<UNK>": 1,
  "<BOS>": 2,
  "<EOS>": 3,
  "<USER>": 4,
  "<ASSISTANT>": 5,
  "{": 6,
  "}": 7,
  "[": 8,
  "]": 9,
  "\"": 10,
  ":": 11,
  ",": 12,
  "0": 13,
  "1": 14,
  "2": 15,
  "3": 16,
  "4": 17,
  "5": 18,
  "6": 19,
  "7": 20,
  "8": 21,
  "9": 22,
  "-": 23,
  ".": 24,
  "a": 25,
  "</w>": 26,
  "l": 27,
  "e": 28,
  "r": 29,
  "g": 30,
  "i": 31,
  "c": 32,
  "t": 33,
  "o": 34,
  "p": 35,
  "n": 36,
  "u": 37,
  "s": 38,
  "h": 39,
  "w": 40,
  "m": 41,
  "d": 42,
  "k": 43,
  "b": 44,
  "y": 45,
  "f": 46,
  "'": 47,
  "x": 48,
  "v": 49,
  "q": 50,
  "z": 51,
  "j": 52,
  "ea": 53,
  "in": 54,
  "ch": 55,
  "ic": 56,
  "an": 57,
  "ee": 58,
  "il": 59,
  "om": 60,
  "an</w>": 61,
  "er": 62,
  "es": 63,
  "ing</w>": 64,
  "th": 65,
  "co": 66,
  "er</w>": 67,
  "fr": 68,
  "ho": 69,
  "le</w>": 70,
  "li": 71,
  "ut": 72,
  "at": 73,
  "cr": 74,
  "en": 75,
  "or": 76,
  "sp": 77,
  "di": 78,
  "en</w>": 79,
  "es</w>": 80,
  "mil": 81,
  "mo": 82,
  "se</w>": 83,
  "sh": 84,
  "st": 85,
  "ar": 86,
  "av": 87,
  "ato</w>": 88,
  "ch</w>": 89,
  "el": 90,
  "ean": 91,
  "eat</w>": 92,
  "gg": 93,
  "gh": 94,
  "ican</w>": 95,
  "ice</w>": 96,
  "ken</w>": 97,
  "me": 98,
  "ot</w>": 99,
  "shr": 100,
  "to": 101,
  "tom": 102,
  "tr": 103,
  "un": 104,
  "ut</w>": 105,
  "ai": 106,
  "al": 107,
  "am": 108,
  "ast": 109,
  "at</w>": 110,
  "ay</w>": 111,
  "ant</w>": 112,
  "bo": 113,
  "chee": 114,
  "chic": 115,
  "chin": 116,
  "crea": 117,
  "dg": 118,
  "dl": 119,
  "ed</w>": 120,
  "ef": 121,
  "egg": 122,
  "ent": 123,
  "ese</w>": 124,
  "fi": 125,
  "fres": 126,
  "gi": 127,
  "ght</w>": 128,
  "hot</w>": 129,
  "hou": 130,
  "iken</w>": 131,
  "in</w>": 132,
  "is</w>": 133,
  "it": 134,
  "inut": 135,
  "ke</w>": 136,
  "minut": 137,
  "mu": 138,
  "my</w>": 139,
  "medi": 140,
  "mon</w>": 141,
  "mushr": 142,
  "ne": 143,
  "ni": 144,
  "ok": 145,
  "ok</w>": 146,
  "on</w>": 147,
  "oms</w>": 148,
  "ork</w>": 149,
  "past": 150,
  "pe": 151,
  "pean": 152,
  "pl": 153,
  "po": 154,
  "qu": 155,
  "sh</w>": 156,
  "spic": 157,
  "ter</w>": 158,
  "uts</w>": 159,
  "wee": 160,
  "wh": 161,
  "yo": 162,
  "'d</w>": 163,
  "-hot</w>": 164,
  "10</w>": 165,
  "15</w>": 166,
  "20</w>": 167,
  "30</w>": 168,
  "45</w>": 169,
  "90</w>": 170,
  "aato</w>": 171,
  "abo": 172,
  "ach</w>": 173,
  "af": 174,
  "afr": 175,
  "ake</w>": 176,
  "ali": 177,
  "am</w>": 178,
  "amil": 179,
  "ap": 180,
  "about</w>": 181,
  "after</w>": 182,
  "african</w>": 183,
  "aid</w>": 184,
  "air": 185,
  "airy</w>": 186,
  "all": 187,
  "almon</w>": 188,
  "alian</w>": 189,
  "aller": 190,
  "allergi": 191,
  "allergic</w>": 192,
  "amer": 193,
  "ami</w>": 194,
  "american</w>": 195,
  "amily</w>": 196,
  "and</w>": 197,
  "anea": 198,
  "anese</w>": 199,
  "ang": 200,
  "ank": 201,
  "antr": 202,
  "anean</w>": 203,
  "angy</w>": 204,
  "anks</w>": 205,
  "antro</w>": 206,
  "apanese</w>": 207,
  "arli": 208,
  "arm</w>": 209,
  "arr": 210,
  "arlic</w>": 211,
  "arrot</w>": 212,
  "atch": 213,
  "ato": 214,
  "atched</w>": 215,
  "atoe</w>": 216,
  "ave</w>": 217,
  "aving</w>": 218,
  "avor": 219,
  "avory</w>": 220,
  "bean": 221,
  "bee": 222,
  "bef": 223,
  "bel": 224,
  "ble</w>": 225,
  "br": 226,
  "bu": 227,
  "but": 228,
  "by</w>": 229,
  "beans</w>": 230,
  "beef</w>": 231,
  "befor": 232,
  "before</w>": 233,
  "bell</w>": 234,
  "bor</w>": 235,
  "brea": 236,
  "bread</w>": 237,
  "budg": 238,
  "budge": 239,
  "budget</w>": 240,
  "butter</w>": 241,
  "can</w>": 242,
  "carrot</w>": 243,
  "cat</w>": 244,
  "cchin": 245,
  "ciken</w>": 246,
  "cil": 247,
  "com": 248,
  "cchini</w>": 249,
  "chciken</w>": 250,
  "chea": 251,
  "ches": 252,
  "chiken</w>": 253,
  "chil": 254,
  "chy</w>": 255,
  "cheap</w>": 256,
  "cheese</w>": 257,
  "cheez": 258,
  "cheeze</w>": 259,
  "chesse</w>": 260,
  "chick": 261,
  "chicken</w>": 262,
  "chickp": 263,
  "chickpea": 264,
  "chickpeas</w>": 265,
  "chili": 266,
  "chili-hot</w>": 267,
  "chinese</w>": 268,
  "cilantro</w>": 269,
  "coco": 270,
  "col": 271,
  "cook</w>": 272,
  "cor": 273,
  "coz": 274,
  "cocon": 275,
  "coconut</w>": 276,
  "cold</w>": 277,
  "comf": 278,
  "comfor": 279,
  "comfort": 280,
  "comforting</w>": 281,
  "corn</w>": 282,
  "cozy</w>": 283,
  "craving</w>": 284,
  "cri": 285,
  "crun": 286,
  "cream</w>": 287,
  "creamy</w>": 288,
  "crisp": 289,
  "crispy</w>": 290,
  "crunchy</w>": 291,
  "dairy</w>": 292,
  "day</w>": 293,
  "dd": 294,
  "der</w>": 295,
  "din": 296,
  "do</w>": 297,
  "du": 298,
  "ddle</w>": 299,
  "dge</w>": 300,
  "dian</w>": 301,
  "dish</w>": 302,
  "dinn": 303,
  "dinner</w>": 304,
  "dles</w>": 305,
  "dly</w>": 306,
  "dul": 307,
  "dulg": 308,
  "dulgen": 309,
  "dulgent</w>": 310,
  "ee</w>": 311,
  "efres": 312,
  "emon</w>": 313,
  "eth": 314,
  "ex": 315,
  "ey</w>": 316,
  "eal</w>": 317,
  "ear": 318,
  "ease</w>": 319,
  "east": 320,
  "eath": 321,
  "eart": 322,
  "earty</w>": 323,
  "easter": 324,
  "eastern</w>": 325,
  "eather</w>": 326,
  "eed</w>": 327,
  "eel</w>": 328,
  "eep": 329,
  "eeping</w>": 330,
  "efto": 331,
  "efresh": 332,
  "efreshing</w>": 333,
  "eftov": 334,
  "eftover": 335,
  "eftovers</w>": 336,
  "eggpl": 337,
  "eggs</w>": 338,
  "eggplant</w>": 339,
  "ell": 340,
  "ely</w>": 341,
  "ellfi": 342,
  "ellfish</w>": 343,
  "ench</w>": 344,
  "end</w>": 345,
  "entil": 346,
  "entle</w>": 347,
  "entils</w>": 348,
  "ere</w>": 349,
  "err": 350,
  "ery</w>": 351,
  "erranean</w>": 352,
  "esday</w>": 353,
  "est</w>": 354,
  "ething</w>": 355,
  "exp": 356,
  "expi": 357,
  "expir": 358,
  "expire</w>": 359,
  "family</w>": 360,
  "feel</w>": 361,
  "fil": 362,
  "fin": 363,
  "fo": 364,
  "fu</w>": 365,
  "fiery</w>": 366,
  "fill": 367,
  "filling</w>": 368,
  "find</w>": 369,
  "for</w>": 370,
  "french</w>": 371,
  "fri": 372,
  "fro": 373,
  "fresh</w>": 374,
  "fridge</w>": 375,
  "from</w>": 376,
  "garlic</w>": 377,
  "gentle</w>": 378,
  "gl": 379,
  "got</w>": 380,
  "gu": 381,
  "ggest</w>": 382,
  "ghbor</w>": 383,
  "giv": 384,
  "give</w>": 385,
  "glut": 386,
  "gluten</w>": 387,
  "gur": 388,
  "gurt</w>": 389,
  "have</w>": 390,
  "hearty</w>": 391,
  "heat</w>": 392,
  "here</w>": 393,
  "hom": 394,
  "hoes</w>": 395,
  "how</w>": 396,
  "homely</w>": 397,
  "hour": 398,
  "hour</w>": 399,
  "hours</w>": 400,
  "i'd</w>": 401,
  "ible</w>": 402,
  "iddle</w>": 403,
  "ie</w>": 404,
  "if</w>": 405,
  "ighbor</w>": 406,
  "im": 407,
  "ip</w>": 408,
  "it</w>": 409,
  "ith": 410,
  "ick</w>": 411,
  "imp</w>": 412,
  "inach</w>": 413,
  "indian</w>": 414,
  "indulgent</w>": 415,
  "ino": 416,
  "inoa</w>": 417,
  "italian</w>": 418,
  "ith</w>": 419,
  "ithin</w>": 420,
  "japanese</w>": 421,
  "kend</w>": 422,
  "ky</w>": 423,
  "leeping</w>": 424,
  "leftovers</w>": 425,
  "lemon</w>": 426,
  "lentils</w>": 427,
  "lo": 428,
  "lun": 429,
  "light</w>": 430,
  "like</w>": 431,
  "lit": 432,
  "liv": 433,
  "litt": 434,
  "little</w>": 435,
  "lives</w>": 436,
  "look": 437,
  "looking</w>": 438,
  "lunch</w>": 439,
  "make</w>": 440,
  "mami</w>": 441,
  "me</w>": 442,
  "meal</w>": 443,
  "middle</w>": 444,
  "mex": 445,
  "medit": 446,
  "mediu": 447,
  "mediterranean</w>": 448,
  "medium</w>": 449,
  "mexican</w>": 450,
  "mild</w>": 451,
  "mildly</w>": 452,
  "milk</w>": 453,
  "minute</w>": 454,
  "minutes</w>": 455,
  "moky</w>": 456,
  "mov": 457,
  "movie</w>": 458,
  "mushro": 459,
  "mushroms</w>": 460,
  "mushrooms</w>": 461,
  "need</w>": 462,
  "nice</w>": 463,
  "no": 464,
  "no</w>": 465,
  "not</w>": 466,
  "nuts</w>": 467,
  "neighbor</w>": 468,
  "new</w>": 469,
  "night</w>": 470,
  "nion</w>": 471,
  "noo": 472,
  "noodles</w>": 473,
  "olives</w>": 474,
  "onion</w>": 475,
  "op": 476,
  "oy</w>": 477,
  "okr": 478,
  "okra</w>": 479,
  "omething</w>": 480,
  "ople</w>": 481,
  "per</w>": 482,
  "pork</w>": 483,
  "pper</w>": 484,
  "pasta</w>": 485,
  "pastt": 486,
  "pastta</w>": 487,
  "people</w>": 488,
  "pepper</w>": 489,
  "peanut</w>": 490,
  "peanuts</w>": 491,
  "please</w>": 492,
  "pos": 493,
  "pot": 494,
  "poss": 495,
  "possible</w>": 496,
  "potato</w>": 497,
  "quick</w>": 498,
  "quinoa</w>": 499,
  "refreshing</w>": 500,
  "rice</w>": 501,
  "said</w>": 502,
  "salmon</w>": 503,
  "savory</w>": 504,
  "shoes</w>": 505,
  "sleeping</w>": 506,
  "smoky</w>": 507,
  "something</w>": 508,
  "soy</w>": 509,
  "su": 510,
  "swee": 511,
  "shellfish</w>": 512,
  "shrimp</w>": 513,
  "spice</w>": 514,
  "spinach</w>": 515,
  "spiced</w>": 516,
  "spicy</w>": 517,
  "sty": 518,
  "style</w>": 519,
  "suggest</w>": 520,
  "sweet</w>": 521,
  "tangy</w>": 522,
  "to</w>": 523,
  "tu": 524,
  "tw": 525,
  "thanks</w>": 526,
  "the</w>": 527,
  "they</w>": 528,
  "this</w>": 529,
  "tofu</w>": 530,
  "tonight</w>": 531,
  "tomaato</w>": 532,
  "tomato</w>": 533,
  "tomatoe</w>": 534,
  "treat</w>": 535,
  "tree</w>": 536,
  "tuesday</w>": 537,
  "two</w>": 538,
  "ucchini</w>": 539,
  "umami</w>": 540,
  "up</w>": 541,
  "use</w>": 542,
  "under</w>": 543,
  "want</w>": 544,
  "warm</w>": 545,
  "watched</w>": 546,
  "way</w>": 547,
  "weather</w>": 548,
  "with</w>": 549,
  "within</w>": 550,
  "work</w>": 551,
  "weekend</w>": 552,
  "what</w>": 553,
  "whip</w>": 554,
  "yogurt</w>": 555,
  "you</w>": 556,
  "zucchini</w>": 557
 },
 "merges": [
  [
   "e",
   "a"
  ],
  [
   "i",
   "n"
  ],
  [
   "c",
   "h"
  ],
  [
   "i",
   "c"
  ],
  [
   "a",
   "n"
  ],
  [
   "e",
   "e"
  ],
  [
   "i",
   "l"
  ],
  [
   "o",
   "m"
  ],
  [
   "a",
   "n</w>"
  ],
  [
   "e",
   "r"
  ],
  [
   "e",
   "s"
  ],
  [
   "in",
   "g</w>"
  ],
  [
   "t",
   "h"
  ],
  [
   "c",
   "o"
  ],
  [
   "e",
   "r</w>"
  ],
  [
   "f",
   "r"
  ],
  [
   "h",
   "o"
  ],
  [
   "l",
   "e</w>"
  ],
  [
   "l",
   "i"
  ],
  [
   "u",
   "t"
  ],
  [
   "a",
   "t"
  ],
  [
   "c",
   "r"
  ],
  [
   "e",
   "n"
  ],
  [
   "o",
   "r"
  ],
  [
   "s",
   "p"
  ],
  [
   "d",
   "i"
  ],
  [
   "e",
   "n</w>"
  ],
  [
   "e",
   "s</w>"
  ],
  [
   "m",
   "il"
  ],
  [
   "m",
   "o"
  ],
  [
   "s",
   "e</w>"
  ],
  [
   "s",
   "h"
  ],
  [
   "s",
   "t"
  ],
  [
   "a",
   "r"
  ],
  [
   "a",
   "v"
  ],
  [
   "at",
   "o</w>"
  ],
  [
   "c",
   "h</w>"
  ],
  [
   "e",
   "l"
  ],
  [
   "ea",
   "n"
  ],
  [
   "ea",
   "t</w>"
  ],
  [
   "g",
   "g"
  ],
  [
   "g",
   "h"
  ],
  [
   "ic",
   "an</w>"
  ],
  [
   "ic",
   "e</w>"
  ],
  [
   "k",
   "en</w>"
  ],
  [
   "m",
   "e"
  ],
  [
   "o",
   "t</w>"
  ],
  [
   "sh",
   "r"
  ],
  [
   "t",
   "o"
  ],
  [
   "t",
   "om"
  ],
  [
   "t",
   "r"
  ],
  [
   "u",
   "n"
  ],
  [
   "u",
   "t</w>"
  ],
  [
   "a",
   "i"
  ],
  [
   "a",
   "l"
  ],
  [
   "a",
   "m"
  ],
  [
   "a",
   "st"
  ],
  [
   "a",
   "t</w>"
  ],
  [
   "a",
   "y</w>"
  ],
  [
   "an",
   "t</w>"
  ],
  [
   "b",
   "o"
  ],
  [
   "ch",
   "ee"
  ],
  [
   "ch",
   "ic"
  ],
  [
   "ch",
   "in"
  ],
  [
   "cr",
   "ea"
  ],
  [
   "d",
   "g"
  ],
  [
   "d",
   "l"
  ],
  [
   "e",
   "d</w>"
  ],
  [
   "e",
   "f"
  ],
  [
   "e",
   "gg"
  ],
  [
   "en",
   "t"
  ],
  [
   "es",
   "e</w>"
  ],
  [
   "f",
   "i"
  ],
  [
   "fr",
   "es"
  ],
  [
   "g",
   "i"
  ],
  [
   "gh",
   "t</w>"
  ],
  [
   "ho",
   "t</w>"
  ],
  [
   "ho",
   "u"
  ],
  [
   "i",
   "ken</w>"
  ],
  [
   "i",
   "n</w>"
  ],
  [
   "i",
   "s</w>"
  ],
  [
   "i",
   "t"
  ],
  [
   "in",
   "ut"
  ],
  [
   "k",
   "e</w>"
  ],
  [
   "m",
   "inut"
  ],
  [
   "m",
   "u"
  ],
  [
   "m",
   "y</w>"
  ],
  [
   "me",
   "di"
  ],
  [
   "mo",
   "n</w>"
  ],
  [
   "mu",
   "shr"
  ],
  [
   "n",
   "e"
  ],
  [
   "n",
   "i"
  ],
  [
   "o",
   "k"
  ],
  [
   "o",
   "k</w>"
  ],
  [
   "o",
   "n</w>"
  ],
  [
   "om",
   "s</w>"
  ],
  [
   "or",
   "k</w>"
  ],
  [
   "p",
   "ast"
  ],
  [
   "p",
   "e"
  ],
  [
   "p",
   "ean"
  ],
  [
   "p",
   "l"
  ],
  [
   "p",
   "o"
  ],
  [
   "q",
   "u"
  ],
  [
   "s",
   "h</w>"
  ],
  [
   "sp",
   "ic"
  ],
  [
   "t",
   "er</w>"
  ],
  [
   "ut",
   "s</w>"
  ],
  [
   "w",
   "ee"
  ],
  [
   "w",
   "h"
  ],
  [
   "y",
   "o"
  ],
  [
   "'",
   "d</w>"
  ],
  [
   "-",
   "hot</w>"
  ],
  [
   "1",
   "0</w>"
  ],
  [
   "1",
   "5</w>"
  ],
  [
   "2",
   "0</w>"
  ],
  [
   "3",
   "0</w>"
  ],
  [
   "4",
   "5</w>"
  ],
  [
   "9",
   "0</w>"
  ],
  [
   "a",
   "ato</w>"
  ],
  [
   "a",
   "bo"
  ],
  [
   "a",
   "ch</w>"
  ],
  [
   "a",
   "f"
  ],
  [
   "a",
   "fr"
  ],
  [
   "a",
   "ke</w>"
  ],
  [
   "a",
   "li"
  ],
  [
   "a",
   "m</w>"
  ],
  [
   "a",
   "mil"
  ],
  [
   "a",
   "p"
  ],
  [
   "abo",
   "ut</w>"
  ],
  [
   "af",
   "ter</w>"
  ],
  [
   "afr",
   "ican</w>"
  ],
  [
   "ai",
   "d</w>"
  ],
  [
   "ai",
   "r"
  ],
  [
   "air",
   "y</w>"
  ],
  [
   "al",
   "l"
  ],
  [
   "al",
   "mon</w>"
  ],
  [
   "ali",
   "an</w>"
  ],
  [
   "all",
   "er"
  ],
  [
   "aller",
   "gi"
  ],
  [
   "allergi",
   "c</w>"
  ],
  [
   "am",
   "er"
  ],
  [
   "am",
   "i</w>"
  ],
  [
   "amer",
   "ican</w>"
  ],
  [
   "amil",
   "y</w>"
  ],
  [
   "an",
   "d</w>"
  ],
  [
   "an",
   "ea"
  ],
  [
   "an",
   "ese</w>"
  ],
  [
   "an",
   "g"
  ],
  [
   "an",
   "k"
  ],
  [
   "an",
   "tr"
  ],
  [
   "anea",
   "n</w>"
  ],
  [
   "ang",
   "y</w>"
  ],
  [
   "ank",
   "s</w>"
  ],
  [
   "antr",
   "o</w>"
  ],
  [
   "ap",
   "anese</w>"
  ],
  [
   "ar",
   "li"
  ],
  [
   "ar",
   "m</w>"
  ],
  [
   "ar",
   "r"
  ],
  [
   "arli",
   "c</w>"
  ],
  [
   "arr",
   "ot</w>"
  ],
  [
   "at",
   "ch"
  ],
  [
   "at",
   "o"
  ],
  [
   "atch",
   "ed</w>"
  ],
  [
   "ato",
   "e</w>"
  ],
  [
   "av",
   "e</w>"
  ],
  [
   "av",
   "ing</w>"
  ],
  [
   "av",
   "or"
  ],
  [
   "avor",
   "y</w>"
  ],
  [
   "b",
   "ean"
  ],
  [
   "b",
   "ee"
  ],
  [
   "b",
   "ef"
  ],
  [
   "b",
   "el"
  ],
  [
   "b",
   "le</w>"
  ],
  [
   "b",
   "r"
  ],
  [
   "b",
   "u"
  ],
  [
   "b",
   "ut"
  ],
  [
   "b",
   "y</w>"
  ],
  [
   "bean",
   "s</w>"
  ],
  [
   "bee",
   "f</w>"
  ],
  [
   "bef",
   "or"
  ],
  [
   "befor",
   "e</w>"
  ],
  [
   "bel",
   "l</w>"
  ],
  [
   "bo",
   "r</w>"
  ],
  [
   "br",
   "ea"
  ],
  [
   "brea",
   "d</w>"
  ],
  [
   "bu",
   "dg"
  ],
  [
   "budg",
   "e"
  ],
  [
   "budge",
   "t</w>"
  ],
  [
   "but",
   "ter</w>"
  ],
  [
   "c",
   "an</w>"
  ],
  [
   "c",
   "arrot</w>"
  ],
  [
   "c",
   "at</w>"
  ],
  [
   "c",
   "chin"
  ],
  [
   "c",
   "iken</w>"
  ],
  [
   "c",
   "il"
  ],
  [
   "c",
   "om"
  ],
  [
   "cchin",
   "i</w>"
  ],
  [
   "ch",
   "ciken</w>"
  ],
  [
   "ch",
   "ea"
  ],
  [
   "ch",
   "es"
  ],
  [
   "ch",
   "iken</w>"
  ],
  [
   "ch",
   "il"
  ],
  [
   "ch",
   "y</w>"
  ],
  [
   "chea",
   "p</w>"
  ],
  [
   "chee",
   "se</w>"
  ],
  [
   "chee",
   "z"
  ],
  [
   "cheez",
   "e</w>"
  ],
  [
   "ches",
   "se</w>"
  ],
  [
   "chic",
   "k"
  ],
  [
   "chic",
   "ken</w>"
  ],
  [
   "chick",
   "p"
  ],
  [
   "chickp",
   "ea"
  ],
  [
   "chickpea",
   "s</w>"
  ],
  [
   "chil",
   "i"
  ],
  [
   "chili",
   "-hot</w>"
  ],
  [
   "chin",
   "ese</w>"
  ],
  [
   "cil",
   "antro</w>"
  ],
  [
   "co",
   "co"
  ],
  [
   "co",
   "l"
  ],
  [
   "co",
   "ok</w>"
  ],
  [
   "co",
   "r"
  ],
  [
   "co",
   "z"
  ],
  [
   "coco",
   "n"
  ],
  [
   "cocon",
   "ut</w>"
  ],
  [
   "col",
   "d</w>"
  ],
  [
   "com",
   "f"
  ],
  [
   "comf",
   "or"
  ],
  [
   "comfor",
   "t"
  ],
  [
   "comfort",
   "ing</w>"
  ],
  [
   "cor",
   "n</w>"
  ],
  [
   "coz",
   "y</w>"
  ],
  [
   "cr",
   "aving</w>"
  ],
  [
   "cr",
   "i"
  ],
  [
   "cr",
   "un"
  ],
  [
   "crea",
   "m</w>"
  ],
  [
   "crea",
   "my</w>"
  ],
  [
   "cri",
   "sp"
  ],
  [
   "crisp",
   "y</w>"
  ],
  [
   "crun",
   "chy</w>"
  ],
  [
   "d",
   "airy</w>"
  ],
  [
   "d",
   "ay</w>"
  ],
  [
   "d",
   "d"
  ],
  [
   "d",
   "er</w>"
  ],
  [
   "d",
   "in"
  ],
  [
   "d",
   "o</w>"
  ],
  [
   "d",
   "u"
  ],
  [
   "dd",
   "le</w>"
  ],
  [
   "dg",
   "e</w>"
  ],
  [
   "di",
   "an</w>"
  ],
  [
   "di",
   "sh</w>"
  ],
  [
   "din",
   "n"
  ],
  [
   "dinn",
   "er</w>"
  ],
  [
   "dl",
   "es</w>"
  ],
  [
   "dl",
   "y</w>"
  ],
  [
   "du",
   "l"
  ],
  [
   "dul",
   "g"
  ],
  [
   "dulg",
   "en"
  ],
  [
   "dulgen",
   "t</w>"
  ],
  [
   "e",
   "e</w>"
  ],
  [
   "e",
   "fres"
  ],
  [
   "e",
   "mon</w>"
  ],
  [
   "e",
   "th"
  ],
  [
   "e",
   "x"
  ],
  [
   "e",
   "y</w>"
  ],
  [
   "ea",
   "l</w>"
  ],
  [
   "ea",
   "r"
  ],
  [
   "ea",
   "se</w>"
  ],
  [
   "ea",
   "st"
  ],
  [
   "ea",
   "th"
  ],
  [
   "ear",
   "t"
  ],
  [
   "eart",
   "y</w>"
  ],
  [
   "east",
   "er"
  ],
  [
   "easter",
   "n</w>"
  ],
  [
   "eath",
   "er</w>"
  ],
  [
   "ee",
   "d</w>"
  ],
  [
   "ee",
   "l</w>"
  ],
  [
   "ee",
   "p"
  ],
  [
   "eep",
   "ing</w>"
  ],
  [
   "ef",
   "to"
  ],
  [
   "efres",
   "h"
  ],
  [
   "efresh",
   "ing</w>"
  ],
  [
   "efto",
   "v"
  ],
  [
   "eftov",
   "er"
  ],
  [
   "eftover",
   "s</w>"
  ],
  [
   "egg",
   "pl"
  ],
  [
   "egg",
   "s</w>"
  ],
  [
   "eggpl",
   "ant</w>"
  ],
  [
   "el",
   "l"
  ],
  [
   "el",
   "y</w>"
  ],
  [
   "ell",
   "fi"
  ],
  [
   "ellfi",
   "sh</w>"
  ],
  [
   "en",
   "ch</w>"
  ],
  [
   "en",
   "d</w>"
  ],
  [
   "ent",
   "il"
  ],
  [
   "ent",
   "le</w>"
  ],
  [
   "entil",
   "s</w>"
  ],
  [
   "er",
   "e</w>"
  ],
  [
   "er",
   "r"
  ],
  [
   "er",
   "y</w>"
  ],
  [
   "err",
   "anean</w>"
  ],
  [
   "es",
   "day</w>"
  ],
  [
   "es",
   "t</w>"
  ],
  [
   "eth",
   "ing</w>"
  ],
  [
   "ex",
   "p"
  ],
  [
   "exp",
   "i"
  ],
  [
   "expi",
   "r"
  ],
  [
   "expir",
   "e</w>"
  ],
  [
   "f",
   "amily</w>"
  ],
  [
   "f",
   "eel</w>"
  ],
  [
   "f",
   "il"
  ],
  [
   "f",
   "in"
  ],
  [
   "f",
   "o"
  ],
  [
   "f",
   "u</w>"
  ],
  [
   "fi",
   "ery</w>"
  ],
  [
   "fil",
   "l"
  ],
  [
   "fill",
   "ing</w>"
  ],
  [
   "fin",
   "d</w>"
  ],
  [
   "fo",
   "r</w>"
  ],
  [
   "fr",
   "ench</w>"
  ],
  [
   "fr",
   "i"
  ],
  [
   "fr",
   "o"
  ],
  [
   "fres",
   "h</w>"
  ],
  [
   "fri",
   "dge</w>"
  ],
  [
   "fro",
   "m</w>"
  ],
  [
   "g",
   "arlic</w>"
  ],
  [
   "g",
   "entle</w>"
  ],
  [
   "g",
   "l"
  ],
  [
   "g",
   "ot</w>"
  ],
  [
   "g",
   "u"
  ],
  [
   "gg",
   "est</w>"
  ],
  [
   "gh",
   "bor</w>"
  ],
  [
   "gi",
   "v"
  ],
  [
   "giv",
   "e</w>"
  ],
  [
   "gl",
   "ut"
  ],
  [
   "glut",
   "en</w>"
  ],
  [
   "gu",
   "r"
  ],
  [
   "gur",
   "t</w>"
  ],
  [
   "h",
   "ave</w>"
  ],
  [
   "h",
   "earty</w>"
  ],
  [
   "h",
   "eat</w>"
  ],
  [
   "h",
   "ere</w>"
  ],
  [
   "h",
   "om"
  ],
  [
   "ho",
   "es</w>"
  ],
  [
   "ho",
   "w</w>"
  ],
  [
   "hom",
   "ely</w>"
  ],
  [
   "hou",
   "r"
  ],
  [
   "hou",
   "r</w>"
  ],
  [
   "hour",
   "s</w>"
  ],
  [
   "i",
   "'d</w>"
  ],
  [
   "i",
   "ble</w>"
  ],
  [
   "i",
   "ddle</w>"
  ],
  [
   "i",
   "e</w>"
  ],
  [
   "i",
   "f</w>"
  ],
  [
   "i",
   "ghbor</w>"
  ],
  [
   "i",
   "m"
  ],
  [
   "i",
   "p</w>"
  ],
  [
   "i",
   "t</w>"
  ],
  [
   "i",
   "th"
  ],
  [
   "ic",
   "k</w>"
  ],
  [
   "im",
   "p</w>"
  ],
  [
   "in",
   "ach</w>"
  ],
  [
   "in",
   "dian</w>"
  ],
  [
   "in",
   "dulgent</w>"
  ],
  [
   "in",
   "o"
  ],
  [
   "ino",
   "a</w>"
  ],
  [
   "it",
   "alian</w>"
  ],
  [
   "it",
   "h</w>"
  ],
  [
   "ith",
   "in</w>"
  ],
  [
   "j",
   "apanese</w>"
  ],
  [
   "k",
   "end</w>"
  ],
  [
   "k",
   "y</w>"
  ],
  [
   "l",
   "eeping</w>"
  ],
  [
   "l",
   "eftovers</w>"
  ],
  [
   "l",
   "emon</w>"
  ],
  [
   "l",
   "entils</w>"
  ],
  [
   "l",
   "o"
  ],
  [
   "l",
   "un"
  ],
  [
   "li",
   "ght</w>"
  ],
  [
   "li",
   "ke</w>"
  ],
  [
   "li",
   "t"
  ],
  [
   "li",
   "v"
  ],
  [
   "lit",
   "t"
  ],
  [
   "litt",
   "le</w>"
  ],
  [
   "liv",
   "es</w>"
  ],
  [
   "lo",
   "ok"
  ],
  [
   "look",
   "ing</w>"
  ],
  [
   "lun",
   "ch</w>"
  ],
  [
   "m",
   "ake</w>"
  ],
  [
   "m",
   "ami</w>"
  ],
  [
   "m",
   "e</w>"
  ],
  [
   "m",
   "eal</w>"
  ],
  [
   "m",
   "iddle</w>"
  ],
  [
   "me",
   "x"
  ],
  [
   "medi",
   "t"
  ],
  [
   "medi",
   "u"
  ],
  [
   "medit",
   "erranean</w>"
  ],
  [
   "mediu",
   "m</w>"
  ],
  [
   "mex",
   "ican</w>"
  ],
  [
   "mil",
   "d</w>"
  ],
  [
   "mil",
   "dly</w>"
  ],
  [
   "mil",
   "k</w>"
  ],
  [
   "minut",
   "e</w>"
  ],
  [
   "minut",
   "es</w>"
  ],
  [
   "mo",
   "ky</w>"
  ],
  [
   "mo",
   "v"
  ],
  [
   "mov",
   "ie</w>"
  ],
  [
   "mushr",
   "o"
  ],
  [
   "mushr",
   "oms</w>"
  ],
  [
   "mushro",
   "oms</w>"
  ],
  [
   "n",
   "eed</w>"
  ],
  [
   "n",
   "ice</w>"
  ],
  [
   "n",
   "o"
  ],
  [
   "n",
   "o</w>"
  ],
  [
   "n",
   "ot</w>"
  ],
  [
   "n",
   "uts</w>"
  ],
  [
   "ne",
   "ighbor</w>"
  ],
  [
   "ne",
   "w</w>"
  ],
  [
   "ni",
   "ght</w>"
  ],
  [
   "ni",
   "on</w>"
  ],
  [
   "no",
   "o"
  ],
  [
   "noo",
   "dles</w>"
  ],
  [
   "o",
   "lives</w>"
  ],
  [
   "o",
   "nion</w>"
  ],
  [
   "o",
   "p"
  ],
  [
   "o",
   "y</w>"
  ],
  [
   "ok",
   "r"
  ],
  [
   "okr",
   "a</w>"
  ],
  [
   "om",
   "ething</w>"
  ],
  [
   "op",
   "le</w>"
  ],
  [
   "p",
   "er</w>"
  ],
  [
   "p",
   "ork</w>"
  ],
  [
   "p",
   "per</w>"
  ],
  [
   "past",
   "a</w>"
  ],
  [
   "past",
   "t"
  ],
  [
   "pastt",
   "a</w>"
  ],
  [
   "pe",
   "ople</w>"
  ],
  [
   "pe",
   "pper</w>"
  ],
  [
   "pean",
   "ut</w>"
  ],
  [
   "pean",
   "uts</w>"
  ],
  [
   "pl",
   "ease</w>"
  ],
  [
   "po",
   "s"
  ],
  [
   "po",
   "t"
  ],
  [
   "pos",
   "s"
  ],
  [
   "poss",
   "ible</w>"
  ],
  [
   "pot",
   "ato</w>"
  ],
  [
   "qu",
   "ick</w>"
  ],
  [
   "qu",
   "inoa</w>"
  ],
  [
   "r",
   "efreshing</w>"
  ],
  [
   "r",
   "ice</w>"
  ],
  [
   "s",
   "aid</w>"
  ],
  [
   "s",
   "almon</w>"
  ],
  [
   "s",
   "avory</w>"
  ],
  [
   "s",
   "hoes</w>"
  ],
  [
   "s",
   "leeping</w>"
  ],
  [
   "s",
   "moky</w>"
  ],
  [
   "s",
   "omething</w>"
  ],
  [
   "s",
   "oy</w>"
  ],
  [
   "s",
   "u"
  ],
  [
   "s",
   "wee"
  ],
  [
   "sh",
   "ellfish</w>"
  ],
  [
   "shr",
   "imp</w>"
  ],
  [
   "sp",
   "ice</w>"
  ],
  [
   "sp",
   "inach</w>"
  ],
  [
   "spic",
   "ed</w>"
  ],
  [
   "spic",
   "y</w>"
  ],
  [
   "st",
   "y"
  ],
  [
   "sty",
   "le</w>"
  ],
  [
   "su",
   "ggest</w>"
  ],
  [
   "swee",
   "t</w>"
  ],
  [
   "t",
   "angy</w>"
  ],
  [
   "t",
   "o</w>"
  ],
  [
   "t",
   "u"
  ],
  [
   "t",
   "w"
  ],
  [
   "th",
   "anks</w>"
  ],
  [
   "th",
   "e</w>"
  ],
  [
   "th",
   "ey</w>"
  ],
  [
   "th",
   "is</w>"
  ],
  [
   "to",
   "fu</w>"
  ],
  [
   "to",
   "night</w>"
  ],
  [
   "tom",
   "aato</w>"
  ],
  [
   "tom",
   "ato</w>"
  ],
  [
   "tom",
   "atoe</w>"
  ],
  [
   "tr",
   "eat</w>"
  ],
  [
   "tr",
   "ee</w>"
  ],
  [
   "tu",
   "esday</w>"
  ],
  [
   "tw",
   "o</w>"
  ],
  [
   "u",
   "cchini</w>"
  ],
  [
   "u",
   "mami</w>"
  ],
  [
   "u",
   "p</w>"
  ],
  [
   "u",
   "se</w>"
  ],
  [
   "un",
   "der</w>"
  ],
  [
   "w",
   "ant</w>"
  ],
  [
   "w",
   "arm</w>"
  ],
  [
   "w",
   "atched</w>"
  ],
  [
   "w",
   "ay</w>"
  ],
  [
   "w",
   "eather</w>"
  ],
  [
   "w",
   "ith</w>"
  ],
  [
   "w",
   "ithin</w>"
  ],
  [
   "w",
   "ork</w>"
  ],
  [
   "wee",
   "kend</w>"
  ],
  [
   "wh",
   "at</w>"
  ],
  [
   "wh",
   "ip</w>"
  ],
  [
   "yo",
   "gurt</w>"
  ],
  [
   "yo",
   "u</w>"
  ],
  [
   "z",
   "ucchini</w>"
  ]
 ]
}